unsigned char calorie_nn_tflite[] = {

  0x1c, 0x00, 0x00, 0x00, 0x54, 0x46, 0x4c, 0x33, 0x14, 0x00, 0x20, 0x00, 
  0x1c, 0x00, 0x18, 0x00, 0x14, 0x00, 0x10, 0x00, 0x0c, 0x00, 0x00, 0x00, 
  0x08, 0x00, 0x04, 0x00, 0x14, 0x00, 0x00, 0x00, 0x1c, 0x00, 0x00, 0x00, 
  0x98, 0x00, 0x00, 0x00, 0xf0, 0x00, 0x00, 0x00, 0x14, 0x13, 0x00, 0x00, 
  0x24, 0x13, 0x00, 0x00, 0xa0, 0x19, 0x00, 0x00, 0x03, 0x00, 0x00, 0x00, 
  0x01, 0x00, 0x00, 0x00, 0x10, 0x00, 0x00, 0x00, 0x00, 0x00, 0x0a, 0x00, 
  0x10, 0x00, 0x0c, 0x00, 0x08, 0x00, 0x04, 0x00, 0x0a, 0x00, 0x00, 0x00, 
  0x0c, 0x00, 0x00, 0x00, 0x1c, 0x00, 0x00, 0x00, 0x3c, 0x00, 0x00, 0x00, 
  0x0f, 0x00, 0x00, 0x00, 0x73, 0x65, 0x72, 0x76, 0x69, 0x6e, 0x67, 0x5f, 
  0x64, 0x65, 0x66, 0x61, 0x75, 0x6c, 0x74, 0x00, 0x01, 0x00, 0x00, 0x00, 
  0x04, 0x00, 0x00, 0x00, 0x90, 0xff, 0xff, 0xff, 0x09, 0x00, 0x00, 0x00, 
  0x04, 0x00, 0x00, 0x00, 0x08, 0x00, 0x00, 0x00, 0x6f, 0x75, 0x74, 0x70, 
  0x75, 0x74, 0x5f, 0x30, 0x00, 0x00, 0x00, 0x00, 0x01, 0x00, 0x00, 0x00, 
  0x04, 0x00, 0x00, 0x00, 0x7a, 0xf4, 0xff, 0xff, 0x04, 0x00, 0x00, 0x00, 
  0x0e, 0x00, 0x00, 0x00, 0x6b, 0x65, 0x72, 0x61, 0x73, 0x5f, 0x74, 0x65, 
  0x6e, 0x73, 0x6f, 0x72, 0x5f, 0x34, 0x00, 0x00, 0x02, 0x00, 0x00, 0x00, 
  0x34, 0x00, 0x00, 0x00, 0x04, 0x00, 0x00, 0x00, 0xdc, 0xff, 0xff, 0xff, 
  0x0c, 0x00, 0x00, 0x00, 0x04, 0x00, 0x00, 0x00, 0x13, 0x00, 0x00, 0x00, 
  0x43, 0x4f, 0x4e, 0x56, 0x45, 0x52, 0x53, 0x49, 0x4f, 0x4e, 0x5f, 0x4d, 
  0x45, 0x54, 0x41, 0x44, 0x41, 0x54, 0x41, 0x00, 0x08, 0x00, 0x0c, 0x00, 
  0x08, 0x00, 0x04, 0x00, 0x08, 0x00, 0x00, 0x00, 0x0b, 0x00, 0x00, 0x00, 
  0x04, 0x00, 0x00, 0x00, 0x13, 0x00, 0x00, 0x00, 0x6d, 0x69, 0x6e, 0x5f, 
  0x72, 0x75, 0x6e, 0x74, 0x69, 0x6d, 0x65, 0x5f, 0x76, 0x65, 0x72, 0x73, 
  0x69, 0x6f, 0x6e, 0x00, 0x0d, 0x00, 0x00, 0x00, 0x20, 0x12, 0x00, 0x00, 
  0x18, 0x12, 0x00, 0x00, 0x08, 0x0b, 0x00, 0x00, 0xf0, 0x09, 0x00, 0x00, 
  0x60, 0x09, 0x00, 0x00, 0x4c, 0x09, 0x00, 0x00, 0xbc, 0x08, 0x00, 0x00, 
  0xac, 0x00, 0x00, 0x00, 0xa4, 0x00, 0x00, 0x00, 0x9c, 0x00, 0x00, 0x00, 
  0x94, 0x00, 0x00, 0x00, 0x74, 0x00, 0x00, 0x00, 0x04, 0x00, 0x00, 0x00, 
  0x2a, 0xf5, 0xff, 0xff, 0x04, 0x00, 0x00, 0x00, 0x60, 0x00, 0x00, 0x00, 
  0x0c, 0x00, 0x00, 0x00, 0x08, 0x00, 0x0e, 0x00, 0x08, 0x00, 0x04, 0x00, 
  0x08, 0x00, 0x00, 0x00, 0x10, 0x00, 0x00, 0x00, 0x28, 0x00, 0x00, 0x00, 
  0x00, 0x00, 0x06, 0x00, 0x08, 0x00, 0x04, 0x00, 0x06, 0x00, 0x00, 0x00, 
  0x04, 0x00, 0x00, 0x00, 0x01, 0x00, 0x00, 0x00, 0xea, 0x03, 0x00, 0x00, 
  0x0c, 0x00, 0x18, 0x00, 0x14, 0x00, 0x10, 0x00, 0x0c, 0x00, 0x04, 0x00, 
  0x0c, 0x00, 0x00, 0x00, 0x0e, 0x2c, 0xab, 0xb3, 0xbb, 0xc2, 0xb6, 0xef, 
  0x02, 0x00, 0x00, 0x00, 0x02, 0x00, 0x00, 0x00, 0x04, 0x00, 0x00, 0x00, 
  0x06, 0x00, 0x00, 0x00, 0x32, 0x2e, 0x31, 0x39, 0x2e, 0x30, 0x00, 0x00, 
  0x96, 0xf5, 0xff, 0xff, 0x04, 0x00, 0x00, 0x00, 0x10, 0x00, 0x00, 0x00, 
  0x32, 0x2e, 0x31, 0x37, 0x2e, 0x30, 0x00, 0x00, 0x00, 0x00, 0x00, 0x00, 
  0x00, 0x00, 0x00, 0x00, 0x40, 0xe8, 0xff, 0xff, 0x44, 0xe8, 0xff, 0xff, 
  0x48, 0xe8, 0xff, 0xff, 0xbe, 0xf5, 0xff, 0xff, 0x04, 0x00, 0x00, 0x00, 
  0x00, 0x08, 0x00, 0x00, 0x1a, 0x18, 0x43, 0x42, 0x4b, 0x3b, 0x38, 0x14, 
  0x38, 0x3e, 0x36, 0x49, 0x5c, 0x42, 0x2c, 0x21, 0x47, 0x66, 0x1c, 0x20, 
  0x38, 0x7a, 0x60, 0x73, 0x4e, 0x35, 0x18, 0x2d, 0x5c, 0x6f, 0x1a, 0x45, 
  0x21, 0x7f, 0x18, 0x43, 0x4d, 0x52, 0x64, 0xf9, 0xf7, 0x28, 0x44, 0x5c, 
  0x33, 0x3d, 0x6c, 0x55, 0xf5, 0x4d, 0xf5, 0x50, 0x36, 0x35, 0x3f, 0x0f, 
  0xe1, 0x2d, 0x36, 0x23, 0x56, 0x20, 0x02, 0x58, 0x26, 0x52, 0x0e, 0x6c, 
  0x71, 0x16, 0x5d, 0x5d, 0x3f, 0x55, 0x67, 0x7f, 0x2f, 0x31, 0x2f, 0x24, 
  0x1e, 0x64, 0x46, 0x7e, 0x1d, 0x6c, 0x24, 0x17, 0x14, 0x26, 0x51, 0x7a, 
  0x2f, 0x55, 0x1f, 0x37, 0x70, 0x57, 0x1f, 0x45, 0x41, 0x69, 0x4b, 0x18, 
  0x18, 0x01, 0x41, 0x0e, 0x76, 0x43, 0x2c, 0x6f, 0x4a, 0x62, 0x0f, 0x28, 
  0x72, 0x43, 0x3a, 0x3d, 0xdc, 0x4f, 0x3b, 0x2e, 0x2d, 0x6f, 0x3f, 0x6e, 
  0x04, 0x59, 0x30, 0x3a, 0x32, 0x38, 0x06, 0x0d, 0x29, 0xfe, 0x71, 0x2e, 
  0x11, 0x10, 0x50, 0x2f, 0x28, 0x50, 0x2d, 0x55, 0x4b, 0x5b, 0x10, 0x2b, 
  0x37, 0x37, 0x65, 0x2f, 0x22, 0x34, 0x5a, 0x3a, 0x12, 0x49, 0x56, 0x4b, 
  0x20, 0x4d, 0x31, 0x21, 0x09, 0x4f, 0x05, 0x47, 0x21, 0x49, 0x45, 0x36, 
  0x2c, 0x7f, 0x19, 0x32, 0x49, 0x58, 0x13, 0xea, 0x1c, 0x6c, 0x2d, 0x1f, 
  0x1c, 0x7d, 0x23, 0x40, 0x19, 0x09, 0xee, 0xdc, 0x12, 0xfe, 0xe3, 0x17, 
  0x0d, 0x12, 0xa6, 0xf1, 0x24, 0xf4, 0x81, 0x05, 0x0f, 0xfa, 0xef, 0xf8, 
  0x23, 0xff, 0xea, 0x44, 0xeb, 0xf0, 0xd2, 0xd1, 0xcd, 0x18, 0x29, 0x0c, 
  0x31, 0xfe, 0x3a, 0xe9, 0x0f, 0xdf, 0xa3, 0x1c, 0x12, 0xf2, 0xf6, 0x1b, 
  0x9e, 0x18, 0x25, 0xe6, 0xe2, 0x0f, 0xf6, 0xe6, 0x16, 0x07, 0x2b, 0x0a, 
  0xb3, 0xed, 0x0d, 0x08, 0x09, 0x34, 0x01, 0x4d, 0x30, 0x0c, 0x28, 0x14, 
  0x74, 0x42, 0x18, 0x36, 0x06, 0x36, 0x4e, 0x3b, 0x10, 0x21, 0x59, 0x0d, 
  0x2c, 0x30, 0x30, 0x5d, 0x58, 0x4d, 0x1c, 0x1c, 0x22, 0x39, 0x45, 0x43, 
  0x5b, 0x2d, 0x45, 0x38, 0x2f, 0x1f, 0xf9, 0x7f, 0x0e, 0x08, 0x5c, 0x07, 
  0x1b, 0x45, 0x3e, 0x1f, 0x1b, 0x4d, 0x44, 0x59, 0x4a, 0x63, 0x20, 0x2c, 
  0x50, 0x0b, 0x49, 0x0a, 0x31, 0x55, 0x17, 0x23, 0x0d, 0x27, 0x37, 0x67, 
  0x29, 0x1a, 0x1e, 0x45, 0x47, 0x4e, 0x58, 0xfd, 0x1b, 0x59, 0x43, 0x2b, 
  0x53, 0x60, 0x5e, 0x26, 0x53, 0x11, 0x48, 0x6e, 0x39, 0x52, 0x39, 0x60, 
  0x47, 0x11, 0x14, 0x33, 0x41, 0x26, 0x48, 0x43, 0x0d, 0x48, 0x06, 0x4c, 
  0x24, 0x27, 0x35, 0x26, 0x2a, 0x59, 0x2f, 0x03, 0x57, 0x6b, 0x51, 0x48, 
  0x3c, 0x44, 0x4d, 0x12, 0x43, 0x3c, 0x22, 0x30, 0xf9, 0x2e, 0x30, 0x53, 
  0x5a, 0x7f, 0x06, 0x39, 0x23, 0x54, 0x12, 0x37, 0x74, 0x11, 0x34, 0x0b, 
  0x23, 0x13, 0x36, 0x7f, 0x09, 0x23, 0x48, 0x03, 0x1e, 0x0e, 0x53, 0x78, 
  0x3b, 0x70, 0x39, 0x27, 0x30, 0x05, 0x46, 0x24, 0x3f, 0x4a, 0x34, 0x1a, 
  0x4f, 0x30, 0x4a, 0x40, 0x4c, 0x39, 0x6f, 0xfe, 0x07, 0x1c, 0x3e, 0x36, 
  0x68, 0x44, 0x23, 0x52, 0x04, 0x53, 0x06, 0x21, 0x5e, 0x1d, 0x4c, 0xf3, 
  0x20, 0x43, 0x08, 0x13, 0x2e, 0x6c, 0x2a, 0x68, 0xe3, 0xfd, 0xfc, 0x0c, 
  0xff, 0xeb, 0x07, 0x27, 0x13, 0x27, 0x07, 0x1e, 0x44, 0xf9, 0xf4, 0x03, 
  0x12, 0x03, 0xc6, 0xde, 0x4b, 0xf2, 0x0b, 0x14, 0x0e, 0xf8, 0xf7, 0x15, 
  0x28, 0xd5, 0x3c, 0x10, 0x35, 0xea, 0x1d, 0x89, 0xe2, 0xc9, 0x0b, 0x10, 
  0x19, 0xfa, 0xea, 0x39, 0xbf, 0x43, 0x15, 0xb3, 0x81, 0xa6, 0xdb, 0xe0, 
  0x08, 0xf9, 0x2e, 0xeb, 0x03, 0xf3, 0x16, 0x2c, 0x1c, 0xd7, 0xfc, 0xcf, 
  0x2e, 0x01, 0x53, 0x63, 0x6c, 0x34, 0x09, 0x1f, 0x3e, 0x34, 0x2f, 0x61, 
  0x1a, 0x58, 0x1d, 0x15, 0x1f, 0x18, 0x17, 0x41, 0x38, 0x2d, 0x2b, 0x5e, 
  0x4b, 0x37, 0x1a, 0x1a, 0x0f, 0x6d, 0x4e, 0x3d, 0x58, 0x68, 0x4f, 0x7f, 
  0x05, 0x1e, 0x43, 0x1f, 0x49, 0x51, 0x19, 0x44, 0x39, 0x57, 0x3d, 0x5b, 
  0x33, 0x55, 0xfe, 0x43, 0x09, 0x42, 0x46, 0x21, 0xf1, 0x57, 0x47, 0x1b, 
  0x54, 0x65, 0x15, 0x6d, 0x38, 0x15, 0xdf, 0xc8, 0xf8, 0xc9, 0x9a, 0xfa, 
  0x81, 0x26, 0xf7, 0x52, 0x9a, 0xbf, 0x50, 0x1a, 0xa0, 0x5a, 0x1f, 0x56, 
  0xf6, 0xcc, 0x57, 0xd7, 0xf1, 0xbb, 0xb0, 0x57, 0xb1, 0x2d, 0xbc, 0x8b, 
  0x12, 0xee, 0xf4, 0x44, 0x2d, 0xe2, 0x41, 0xb7, 0xd1, 0xff, 0x8a, 0x1e, 
  0xf0, 0xc1, 0xc5, 0x4a, 0xea, 0x97, 0x9f, 0x39, 0xad, 0x0b, 0x07, 0x0b, 
  0x52, 0x85, 0x93, 0xf7, 0xef, 0x21, 0x1e, 0xa9, 0x1e, 0xdc, 0xf6, 0xc9, 
  0x2b, 0xc0, 0xec, 0x07, 0xfb, 0x45, 0xc1, 0xc8, 0x5d, 0xd3, 0xb1, 0x35, 
  0x26, 0x19, 0x3f, 0xc6, 0x5b, 0xf5, 0xbf, 0x45, 0xa5, 0x04, 0xa6, 0xd3, 
  0xb8, 0xcf, 0x32, 0xe9, 0xd8, 0x19, 0xf1, 0x99, 0xdd, 0x09, 0xb5, 0x56, 
  0x0a, 0x05, 0x13, 0x3c, 0xa9, 0x44, 0x7f, 0xdf, 0xdf, 0x56, 0xe7, 0xf5, 
  0x0b, 0xe1, 0x0c, 0xf3, 0x1d, 0xfb, 0xe7, 0x56, 0x13, 0x62, 0x1d, 0x2e, 
  0xcf, 0xfa, 0xe8, 0x12, 0x05, 0x0a, 0x10, 0x41, 0x0d, 0x1e, 0xe1, 0x1d, 
  0x1d, 0x02, 0x07, 0x22, 0x3e, 0x1a, 0xd5, 0xd8, 0x5a, 0xe8, 0xfa, 0x49, 
  0xf2, 0x12, 0x08, 0x0f, 0xde, 0xe6, 0x2b, 0x0c, 0x1c, 0xdd, 0xed, 0xbf, 
  0x09, 0xd0, 0x15, 0x02, 0xc6, 0xe5, 0xeb, 0x4d, 0x99, 0x1e, 0x03, 0xb7, 
  0x81, 0xf1, 0xda, 0xdd, 0xfe, 0xe8, 0x2e, 0xab, 0xa7, 0xf4, 0xfd, 0x3b, 
  0x41, 0x29, 0x04, 0xf2, 0x32, 0x51, 0x42, 0x5a, 0x37, 0x3d, 0x27, 0x38, 
  0x02, 0x0a, 0x1b, 0x56, 0x37, 0x5c, 0x65, 0x3d, 0x1f, 0x62, 0x3f, 0x36, 
  0x11, 0x1d, 0x23, 0x41, 0x14, 0x34, 0x56, 0x32, 0x5c, 0x66, 0x1d, 0x2e, 
  0x24, 0x25, 0x4b, 0x7f, 0x1d, 0x09, 0x4f, 0x1e, 0x4c, 0x29, 0xf9, 0x30, 
  0x27, 0x27, 0x41, 0x35, 0x4d, 0x6c, 0x05, 0x47, 0x47, 0x25, 0x36, 0x02, 
  0x39, 0x45, 0x19, 0x6e, 0x3c, 0x47, 0x3d, 0x2c, 0x24, 0x56, 0x15, 0x1c, 
  0x54, 0x3e, 0x3c, 0x52, 0x4e, 0x45, 0x1e, 0x7a, 0x2f, 0x52, 0x22, 0x4e, 
  0x42, 0x58, 0x22, 0x45, 0x3d, 0x46, 0x29, 0x19, 0x53, 0x16, 0x3f, 0x1f, 
  0x38, 0x2b, 0x27, 0x27, 0x57, 0x3f, 0x15, 0x35, 0x12, 0x3e, 0x1c, 0x11, 
  0xfc, 0x0f, 0x2e, 0x40, 0x4c, 0x54, 0x14, 0x44, 0x16, 0x77, 0x42, 0x59, 
  0x25, 0x03, 0x19, 0x13, 0x06, 0x24, 0x31, 0x53, 0x31, 0x42, 0x4d, 0x7f, 
  0xbf, 0xff, 0xd2, 0xef, 0xf8, 0xea, 0x2a, 0x3a, 0xf9, 0x12, 0x81, 0xe9, 
  0x25, 0x01, 0x8b, 0x09, 0x4a, 0xd7, 0xef, 0xaf, 0x3f, 0xd7, 0xfa, 0x5d, 
  0x02, 0xea, 0xbc, 0xee, 0xcd, 0x05, 0x36, 0x15, 0x1a, 0xed, 0x38, 0x00, 
  0x11, 0xcf, 0xb3, 0xf8, 0xf2, 0x0d, 0xe5, 0x2d, 0x83, 0x22, 0x15, 0xbf, 
  0x95, 0x45, 0xe9, 0xd9, 0x18, 0xed, 0x37, 0xdc, 0xbb, 0xe4, 0x2f, 0x21, 
  0x79, 0x51, 0x3f, 0x4c, 0xf9, 0xf6, 0xc9, 0xd7, 0x0e, 0xd5, 0x11, 0x22, 
  0xfd, 0x20, 0x94, 0xfe, 0x2a, 0xfc, 0x81, 0x07, 0x33, 0xee, 0xf5, 0xcf, 
  0x33, 0xdd, 0x04, 0x48, 0x18, 0xea, 0xb0, 0xe2, 0x94, 0xe7, 0x3f, 0x09, 
  0x1a, 0xe3, 0x24, 0xf2, 0xfe, 0xd6, 0x86, 0x09, 0x08, 0xfa, 0x1a, 0x08, 
  0x95, 0x25, 0x23, 0x03, 0xb4, 0x2d, 0xe2, 0xed, 0x08, 0x07, 0x38, 0xe5, 
  0xa7, 0xf0, 0x29, 0x35, 0x3f, 0x30, 0x14, 0x23, 0x59, 0x4c, 0x01, 0x2a, 
  0x66, 0x40, 0x50, 0x0e, 0x0f, 0x47, 0x4c, 0x38, 0x0f, 0x5a, 0x43, 0x10, 
  0x5e, 0x23, 0x4f, 0x5d, 0x1f, 0x5e, 0x18, 0x3e, 0x53, 0x45, 0x21, 0x5e, 
  0x22, 0x20, 0x2b, 0x0d, 0x3c, 0x4b, 0x33, 0x31, 0x47, 0x3f, 0x24, 0x48, 
  0x13, 0x22, 0x38, 0x0e, 0x3e, 0x29, 0x24, 0x64, 0x19, 0x7f, 0x07, 0x53, 
  0x3f, 0x23, 0x25, 0x15, 0x2e, 0x3f, 0x19, 0x4e, 0x00, 0x51, 0x3e, 0x3c, 
  0x03, 0x56, 0x35, 0x67, 0x3f, 0x16, 0x5c, 0xfa, 0x43, 0x3e, 0x5e, 0x41, 
  0x0a, 0x49, 0x25, 0x21, 0x19, 0x41, 0x1e, 0x29, 0x2b, 0x26, 0x62, 0x4c, 
  0x5d, 0x38, 0x09, 0x1c, 0x3c, 0x21, 0x10, 0x5a, 0x67, 0x40, 0x08, 0x4f, 
  0x32, 0x2c, 0x7f, 0x57, 0xed, 0x47, 0x0a, 0x59, 0x13, 0x65, 0x44, 0x44, 
  0x03, 0x58, 0x31, 0x3b, 0x67, 0x4a, 0x4c, 0x4d, 0xe4, 0x4f, 0x36, 0x17, 
  0x27, 0x51, 0x0e, 0x33, 0x18, 0x4d, 0x39, 0x5d, 0x71, 0x4a, 0x3b, 0x18, 
  0x49, 0x46, 0x48, 0x5c, 0x3a, 0x0d, 0x4e, 0x19, 0x14, 0x17, 0x55, 0x4a, 
  0x47, 0x5a, 0x2d, 0x39, 0x1a, 0x25, 0x41, 0x3e, 0x3c, 0x63, 0x38, 0x0c, 
  0x09, 0x5e, 0x1b, 0x48, 0x40, 0x4a, 0x51, 0x22, 0xf5, 0x3a, 0x12, 0x51, 
  0x5b, 0x0a, 0x26, 0x7f, 0x0b, 0x36, 0x3a, 0x2d, 0x5c, 0x49, 0x15, 0x0d, 
  0xe5, 0x22, 0x40, 0x4d, 0x09, 0x23, 0x15, 0x3c, 0x22, 0x01, 0x0d, 0x17, 
  0x30, 0x4b, 0x52, 0x4f, 0x52, 0x2f, 0x3d, 0x5a, 0xfe, 0x3a, 0x37, 0x4e, 
  0x3c, 0x51, 0x16, 0x3b, 0x4f, 0x46, 0x2f, 0x12, 0x07, 0x23, 0x20, 0x46, 
  0x0f, 0x54, 0xfd, 0x3c, 0x56, 0x6a, 0x40, 0x7f, 0x3f, 0x3e, 0x6e, 0x3f, 
  0x08, 0x22, 0x01, 0x0a, 0x34, 0x05, 0x33, 0x4b, 0x01, 0x5a, 0x09, 0x33, 
  0x2b, 0xfd, 0x47, 0x29, 0xe5, 0x26, 0x3e, 0x37, 0x4f, 0x5f, 0x2f, 0x52, 
  0x5b, 0x0e, 0x02, 0x50, 0x39, 0x46, 0x4a, 0x2f, 0x35, 0xfe, 0x33, 0x2a, 
  0x47, 0x08, 0x26, 0x45, 0x11, 0x50, 0x4f, 0x3f, 0x4d, 0x3d, 0x4a, 0x68, 
  0x08, 0x26, 0x5e, 0x57, 0x47, 0x1f, 0x57, 0x4c, 0x48, 0x35, 0x32, 0x57, 
  0x06, 0x0d, 0x29, 0x3e, 0xf5, 0x3b, 0x06, 0x31, 0x20, 0x13, 0x3f, 0x7f, 
  0xff, 0x2e, 0x1c, 0x13, 0x0d, 0x17, 0x3f, 0xf2, 0x04, 0x2d, 0x4a, 0x20, 
  0x09, 0x4e, 0x48, 0x69, 0x2b, 0xfd, 0x02, 0x4c, 0x7f, 0x39, 0x6d, 0x08, 
  0x2a, 0x12, 0x6b, 0x52, 0x21, 0x36, 0x1c, 0x10, 0x1a, 0x69, 0x71, 0x4a, 
  0x75, 0x7c, 0x36, 0x70, 0x65, 0x38, 0x3e, 0x19, 0x63, 0x4f, 0x23, 0x58, 
  0x2c, 0x5a, 0x06, 0x46, 0x20, 0x35, 0x4f, 0x00, 0x0c, 0x50, 0xfe, 0x45, 
  0x74, 0x6d, 0x4b, 0x61, 0xf8, 0x63, 0xf7, 0x0b, 0x66, 0x2e, 0x63, 0x0f, 
  0xdb, 0x6c, 0x3e, 0x60, 0x14, 0x3c, 0x43, 0x4e, 0x68, 0x51, 0x4e, 0x14, 
  0x4c, 0x22, 0x34, 0x08, 0x15, 0x05, 0x4f, 0x4f, 0x38, 0x02, 0x1a, 0xf6, 
  0x6b, 0x13, 0x67, 0x1e, 0x1d, 0x23, 0x2d, 0x22, 0x76, 0x59, 0x60, 0x62, 
  0x2a, 0x56, 0x19, 0x58, 0x43, 0x35, 0x3a, 0x4d, 0x6e, 0x62, 0x72, 0x34, 
  0x28, 0x31, 0x55, 0x59, 0x3e, 0x31, 0x35, 0x42, 0x5e, 0x3b, 0xf8, 0x45, 
  0x48, 0x16, 0xf9, 0x36, 0xf5, 0x3d, 0x14, 0x7e, 0x14, 0x7f, 0x11, 0x36, 
  0xf6, 0x26, 0xdf, 0x3a, 0xa8, 0xbe, 0xea, 0xca, 0xd0, 0xe4, 0x39, 0x9b, 
  0x24, 0xd2, 0x58, 0xf8, 0xa2, 0xfb, 0xd7, 0x86, 0xd1, 0xc4, 0xef, 0xbe, 
  0x94, 0xda, 0x13, 0x09, 0x88, 0x3e, 0x18, 0x07, 0x3c, 0xb3, 0xcd, 0x86, 
  0x26, 0x9d, 0xbd, 0x44, 0xd5, 0xa1, 0x28, 0x40, 0xb7, 0xb9, 0x1b, 0x1e, 
  0xd3, 0xf0, 0x46, 0x81, 0x43, 0xa5, 0x3d, 0x1a, 0x3c, 0x38, 0xc1, 0xb7, 
  0x22, 0x3e, 0x47, 0xcf, 0x9c, 0x3e, 0x19, 0x33, 0xd4, 0x1b, 0x0f, 0x36, 
  0x16, 0x19, 0xe1, 0x15, 0x2a, 0xed, 0xe4, 0x29, 0xff, 0xf4, 0xc9, 0x95, 
  0x27, 0xac, 0x0f, 0x47, 0x20, 0xfd, 0xfc, 0x21, 0xda, 0xaf, 0x3e, 0x04, 
  0x42, 0xd8, 0x2b, 0xb1, 0x20, 0xec, 0x22, 0x0c, 0x29, 0x00, 0x1b, 0x4c, 
  0xb5, 0x1c, 0x81, 0xbd, 0xb8, 0xc7, 0xe4, 0x05, 0x01, 0x33, 0xe9, 0xea, 
  0x8b, 0x02, 0xf3, 0xb4, 0x34, 0x2b, 0x25, 0x1f, 0x19, 0x0f, 0x46, 0x21, 
  0x58, 0x51, 0x44, 0x0d, 0x02, 0x3f, 0x5c, 0x72, 0x3a, 0x2d, 0x1f, 0x0c, 
  0x3e, 0x2a, 0x55, 0x57, 0x25, 0x53, 0x08, 0x60, 0x4a, 0x0d, 0x3b, 0x59, 
  0x14, 0x6a, 0x0a, 0x27, 0x26, 0x2d, 0x05, 0x7f, 0x3f, 0x06, 0x6a, 0x3d, 
  0x27, 0x3a, 0x26, 0x17, 0x52, 0x3a, 0x56, 0x56, 0x2e, 0x43, 0x22, 0x1c, 
  0x36, 0x1e, 0x2d, 0x26, 0x1f, 0x2f, 0x2a, 0x54, 0x19, 0x47, 0x2d, 0x52, 
  0x16, 0x09, 0x08, 0x06, 0xe1, 0xec, 0x1b, 0x26, 0xe2, 0x46, 0xa4, 0x06, 
  0x25, 0x15, 0xaf, 0x1f, 0xcc, 0xe2, 0x0c, 0xa3, 0x60, 0x06, 0x0a, 0x7f, 
  0xe9, 0x1e, 0x01, 0x05, 0xbb, 0xa1, 0x51, 0xe2, 0xaf, 0xfd, 0x06, 0xc7, 
  0xd4, 0xd2, 0xcc, 0xc6, 0x34, 0x09, 0x1b, 0x09, 0xde, 0x4e, 0x29, 0xb4, 
  0xf7, 0x39, 0xfb, 0xdc, 0xc6, 0x26, 0x19, 0x30, 0x41, 0xc3, 0xeb, 0x5e, 
  0x06, 0x2b, 0xe8, 0x51, 0x33, 0x2b, 0x26, 0x27, 0x59, 0x3b, 0x61, 0x41, 
  0x0e, 0x60, 0x22, 0x2f, 0x43, 0x3c, 0x12, 0x4e, 0x48, 0x10, 0x55, 0x48, 
  0x17, 0x77, 0x3e, 0x1e, 0x54, 0x35, 0x17, 0x5c, 0x50, 0x5d, 0x42, 0x11, 
  0x61, 0x4a, 0x1d, 0x3b, 0x58, 0x48, 0x2e, 0x51, 0x2b, 0x53, 0x4f, 0x05, 
  0x14, 0x43, 0x3f, 0x7f, 0xff, 0x3b, 0x1a, 0x44, 0x3f, 0x0c, 0x3b, 0x2f, 
  0xef, 0x3e, 0xf5, 0x5f, 0x00, 0x5f, 0x0b, 0x40, 0xdc, 0x1a, 0xf8, 0x22, 
  0xc6, 0xd9, 0x16, 0x59, 0x24, 0x51, 0xdb, 0xfc, 0x2d, 0x1f, 0xfd, 0x02, 
  0xd7, 0xfc, 0xd5, 0xba, 0x22, 0x9a, 0x18, 0x36, 0x3b, 0xc4, 0xf2, 0x31, 
  0xf2, 0xef, 0x38, 0x07, 0x62, 0x15, 0x26, 0x9f, 0x0a, 0xf7, 0x01, 0xf3, 
  0x1b, 0x03, 0x05, 0x3c, 0x81, 0x17, 0xc7, 0xc4, 0xa0, 0xc0, 0xe3, 0xf5, 
  0x19, 0x2f, 0x02, 0xe3, 0xe5, 0xfd, 0x0b, 0x13, 0x2a, 0xf9, 0x24, 0x05, 
  0x07, 0x40, 0x55, 0x11, 0x7f, 0x0f, 0x58, 0x23, 0x57, 0x42, 0x52, 0x71, 
  0x4c, 0x2d, 0x50, 0x40, 0x27, 0x43, 0x5c, 0x25, 0x3b, 0x4c, 0x10, 0x33, 
  0x2c, 0x1e, 0x2a, 0x51, 0x2b, 0x5f, 0x27, 0x1b, 0x32, 0x64, 0x03, 0x5f, 
  0x23, 0x43, 0x3c, 0x14, 0xf0, 0x4b, 0x35, 0x57, 0x4c, 0x1a, 0x16, 0x6f, 
  0x1c, 0x64, 0x3f, 0x4d, 0x3e, 0x05, 0x59, 0x2f, 0x35, 0x19, 0x42, 0x59, 
  0xfd, 0x4b, 0x1e, 0x6c, 0xc1, 0x0a, 0xd0, 0x11, 0x13, 0x18, 0x0b, 0x38, 
  0x0f, 0x1d, 0xae, 0xdf, 0xf7, 0x08, 0x81, 0x26, 0x3f, 0xfd, 0x06, 0x06, 
  0x38, 0xe9, 0xf8, 0x60, 0x0d, 0x0a, 0xb4, 0xe6, 0xea, 0x1b, 0x29, 0x17, 
  0x2e, 0x0c, 0x3b, 0xf1, 0x21, 0xea, 0xbd, 0xf1, 0xd5, 0x17, 0xfe, 0x0c, 
  0xb8, 0x34, 0x01, 0xd1, 0xc3, 0x52, 0xe3, 0xe2, 0xff, 0xe3, 0x2a, 0xeb, 
  0xcb, 0xec, 0x17, 0x11, 0x2a, 0x2f, 0x0f, 0x52, 0x02, 0x54, 0x23, 0x45, 
  0x71, 0x52, 0x57, 0x4d, 0x10, 0x07, 0x40, 0x49, 0x37, 0x1c, 0x53, 0x07, 
  0x36, 0x55, 0x50, 0x2e, 0x36, 0x56, 0x25, 0x58, 0x1f, 0x58, 0x4c, 0x11, 
  0x06, 0x25, 0xf7, 0x37, 0x3f, 0x1d, 0x44, 0x7f, 0x41, 0x1b, 0x1e, 0x47, 
  0x28, 0xf6, 0x50, 0x51, 0x53, 0x3a, 0x21, 0x68, 0x31, 0x6f, 0x0d, 0x4b, 
  0x18, 0x31, 0xff, 0x45, 0xf4, 0x3b, 0x16, 0x28, 0xf9, 0x43, 0x32, 0x64, 
  0xca, 0xfd, 0xff, 0xff, 0x04, 0x00, 0x00, 0x00, 0x80, 0x00, 0x00, 0x00, 
  0x30, 0x51, 0x18, 0x3f, 0xfe, 0xc4, 0xe3, 0x3e, 0x40, 0x80, 0x1f, 0x3f, 
  0x11, 0xc2, 0xaf, 0xbf, 0x8b, 0xab, 0xba, 0x3e, 0xef, 0x04, 0x26, 0x3f, 
  0x47, 0x0a, 0xfb, 0x3e, 0x92, 0x3e, 0x8e, 0xbf, 0x59, 0x7a, 0x12, 0x3f, 
  0x85, 0x29, 0xf1, 0xbd, 0xee, 0x41, 0xa7, 0xbf, 0x7e, 0x64, 0x93, 0xbf, 
  0xbc, 0x96, 0x0f, 0x3f, 0x61, 0xc2, 0xd2, 0x3e, 0x81, 0xd4, 0xef, 0xbf, 
  0x6e, 0x57, 0xbc, 0xbf, 0xd9, 0x5e, 0xc0, 0x3e, 0x9e, 0x68, 0x1b, 0x3f, 
  0x39, 0x4f, 0xb2, 0x3e, 0x0d, 0x5e, 0xdb, 0x3e, 0x23, 0x34, 0x31, 0x3f, 
  0xa3, 0x37, 0xf8, 0x3e, 0x83, 0x4c, 0x2e, 0x3f, 0x15, 0xac, 0x35, 0xbe, 
  0x56, 0xfb, 0xb7, 0xbf, 0xab, 0x28, 0xad, 0x3e, 0x36, 0xb7, 0x8a, 0xbf, 
  0xa1, 0xe1, 0x23, 0x3f, 0x9b, 0x35, 0xc5, 0xbf, 0x9c, 0xb7, 0xbc, 0x3e, 
  0x31, 0x36, 0xde, 0xbf, 0xe9, 0xba, 0xe1, 0x3e, 0x56, 0xfe, 0xff, 0xff, 
  0x04, 0x00, 0x00, 0x00, 0x04, 0x00, 0x00, 0x00, 0x54, 0xd8, 0xf0, 0x3d, 
  0x66, 0xfe, 0xff, 0xff, 0x04, 0x00, 0x00, 0x00, 0x80, 0x00, 0x00, 0x00, 
  0x1b, 0x74, 0x1e, 0x3e, 0xfa, 0xd1, 0x1a, 0x3e, 0x94, 0x98, 0x25, 0x3e, 
  0xc2, 0x67, 0xbd, 0x3e, 0xce, 0x9e, 0x43, 0x3e, 0x64, 0x06, 0x1d, 0x3e, 
  0x36, 0x82, 0x3d, 0x3e, 0x15, 0x5d, 0x26, 0xbd, 0x1f, 0x17, 0x24, 0x3e, 
  0xf7, 0xf2, 0x05, 0xbd, 0xef, 0x50, 0x1b, 0x3e, 0x9d, 0x02, 0x91, 0xbe, 
  0x44, 0x14, 0x10, 0x3e, 0x96, 0x1f, 0x22, 0x3e, 0x5e, 0x5f, 0x9a, 0x3e, 
  0xba, 0x99, 0xcf, 0x3e, 0x39, 0x55, 0x32, 0x3e, 0x2b, 0x7d, 0x17, 0x3e, 
  0x1f, 0x2f, 0x48, 0x3e, 0x68, 0xbf, 0x2a, 0x3e, 0x61, 0xe1, 0x1f, 0x3e, 
  0x11, 0x47, 0x27, 0x3e, 0x88, 0x87, 0x17, 0x3e, 0xdb, 0x42, 0x25, 0xbd, 
  0xfd, 0x24, 0x86, 0x3d, 0xbd, 0x1d, 0x50, 0x3e, 0x20, 0x63, 0x2b, 0x3e, 
  0x10, 0x0f, 0x16, 0x3e, 0xb6, 0xae, 0x35, 0x3d, 0x00, 0x48, 0x33, 0x3e, 
  0x44, 0xc5, 0xe7, 0x3e, 0x62, 0xc2, 0x18, 0x3e, 0xf2, 0xfe, 0xff, 0xff, 
  0x04, 0x00, 0x00, 0x00, 0x00, 0x01, 0x00, 0x00, 0x0c, 0xe3, 0x9a, 0xbd, 
  0x25, 0x64, 0xad, 0x3e, 0xb8, 0x2d, 0x9e, 0x3e, 0x42, 0xd2, 0x59, 0x3e, 
  0x37, 0x1a, 0x2c, 0xbe, 0xd5, 0xa4, 0xdc, 0x3e, 0x2c, 0x27, 0xa6, 0x3e, 
  0xda, 0x8f, 0xb1, 0x3e, 0xec, 0x82, 0x95, 0x3e, 0xfb, 0xab, 0x72, 0x3e, 
  0x32, 0x59, 0x5d, 0x3e, 0xea, 0xdf, 0x16, 0xbd, 0x80, 0x2e, 0x1b, 0x3e, 
  0x40, 0xe9, 0xe6, 0x3d, 0x38, 0xf4, 0x93, 0xbd, 0xd9, 0xd2, 0x2a, 0x3e, 
  0x9c, 0x7c, 0x04, 0x3f, 0x50, 0xb4, 0x9c, 0x3e, 0x99, 0x94, 0xb0, 0xbd, 
  0xc1, 0x02, 0x03, 0x3e, 0x4e, 0x78, 0xfc, 0x3d, 0x28, 0x3d, 0x2a, 0x3e, 
  0x20, 0x6b, 0x37, 0x3e, 0x4f, 0xbe, 0x93, 0x3e, 0x7f, 0xe8, 0x56, 0x3e, 
  0x41, 0xdc, 0x90, 0x3e, 0x91, 0x32, 0x5a, 0x3e, 0x37, 0x0e, 0xcf, 0x3c, 
  0x52, 0x34, 0x2c, 0x3e, 0xab, 0x33, 0x6e, 0x3e, 0xcb, 0xdf, 0xc8, 0x3e, 
  0x7c, 0x33, 0xa3, 0x3e, 0xe5, 0x13, 0x17, 0x3f, 0x9e, 0x4d, 0x02, 0x3e, 
  0x02, 0xc2, 0x6d, 0x3e, 0xcf, 0x81, 0x8f, 0x3b, 0x4c, 0x13, 0xcf, 0x3e, 
  0x57, 0x85, 0xda, 0x3e, 0xcf, 0x69, 0x30, 0x3e, 0x00, 0x17, 0xba, 0x3e, 
  0xd7, 0x8d, 0xbf, 0x3e, 0x72, 0xcd, 0xc3, 0x3e, 0x77, 0xc8, 0xce, 0x3e, 
  0xb8, 0xea, 0x85, 0x3e, 0x8c, 0x94, 0x41, 0x3f, 0x19, 0xb1, 0x82, 0x3e, 
  0x83, 0x0f, 0x24, 0xbe, 0x14, 0x85, 0x2e, 0x3d, 0x67, 0x21, 0x18, 0x3f, 
  0xdb, 0x0f, 0x2d, 0x3e, 0x0d, 0xa6, 0xef, 0x3e, 0x28, 0x7d, 0xbb, 0x3e, 
  0x1d, 0x07, 0x95, 0x3e, 0x6a, 0x2a, 0x9a, 0x3e, 0xe7, 0x10, 0x85, 0x3e, 
  0x47, 0xa2, 0x97, 0x3e, 0x6e, 0xe6, 0x54, 0x3d, 0x6f, 0x4f, 0x84, 0x3e, 
  0xc9, 0xaf, 0xf4, 0x3e, 0x70, 0x0c, 0x01, 0xbe, 0xba, 0x02, 0x4a, 0xbd, 
  0xd9, 0x01, 0x56, 0x3e, 0xa9, 0xaf, 0x14, 0x3e, 0xa9, 0xbc, 0x34, 0x3f, 
  0x00, 0x00, 0x06, 0x00, 0x08, 0x00, 0x04, 0x00, 0x06, 0x00, 0x00, 0x00, 
  0x04, 0x00, 0x00, 0x00, 0x00, 0x07, 0x00, 0x00, 0xfd, 0xa1, 0x5a, 0x3e, 
  0x05, 0x10, 0x87, 0x3c, 0xd7, 0x98, 0x4c, 0x3e, 0xe9, 0x15, 0x66, 0x3f, 
  0xab, 0x30, 0xae, 0x3d, 0x98, 0x17, 0xbc, 0x3d, 0xa7, 0x2f, 0x38, 0x3e, 
  0x63, 0x84, 0xa5, 0x3e, 0x4f, 0xfd, 0xd5, 0x3c, 0x6f, 0x2e, 0x76, 0x3e, 
  0x09, 0x65, 0x16, 0x3f, 0x19, 0xae, 0xba, 0x3e, 0x91, 0xd7, 0x5c, 0x3e, 
  0x6a, 0x23, 0x03, 0x3e, 0x8e, 0x94, 0x24, 0x3e, 0xd5, 0xeb, 0x5e, 0xbd, 
  0xe1, 0x38, 0x50, 0x3e, 0xe2, 0xbf, 0x82, 0xbe, 0x4e, 0xc1, 0x12, 0x3f, 
  0x1d, 0x9e, 0x4f, 0x3e, 0x5c, 0x54, 0x8c, 0xbc, 0x8f, 0x29, 0x0a, 0x3e, 
  0xb4, 0x76, 0xae, 0xbd, 0x72, 0x49, 0xd2, 0x3d, 0xa9, 0x53, 0x74, 0xbf, 
  0x55, 0xc8, 0x5f, 0x3e, 0x5b, 0x86, 0x8b, 0x3e, 0x90, 0x48, 0x22, 0x3e, 
  0x92, 0x09, 0x90, 0x3e, 0x59, 0x0a, 0xc7, 0x3d, 0x07, 0xde, 0x9b, 0x3c, 
  0xcd, 0x9c, 0x82, 0x3f, 0x6c, 0x85, 0x2e, 0x3e, 0xb6, 0x1d, 0x65, 0x3e, 
  0x12, 0x06, 0xf9, 0xbd, 0x5d, 0xe1, 0xce, 0x3d, 0x73, 0x56, 0x77, 0x3d, 
  0x20, 0x03, 0xd5, 0xbc, 0x0f, 0x4f, 0xb9, 0xbe, 0x30, 0xed, 0x1f, 0x3f, 
  0xf8, 0xf2, 0xa5, 0x3e, 0x95, 0xfb, 0x3d, 0xbd, 0xb5, 0x02, 0x8e, 0x3e, 
  0x29, 0x96, 0x64, 0x3d, 0x1c, 0xe9, 0x07, 0x3d, 0x58, 0xf6, 0xe3, 0xbe, 
  0x80, 0xc6, 0x1f, 0x3f, 0x98, 0xc6, 0xf5, 0x3e, 0x6d, 0x33, 0xe6, 0xbd, 
  0x6c, 0x62, 0x81, 0x3e, 0x90, 0xc1, 0x69, 0x3d, 0x4a, 0x7e, 0x8d, 0xbd, 
  0x2c, 0x41, 0xce, 0xbe, 0x0f, 0x3c, 0x40, 0xbe, 0x0f, 0x81, 0x35, 0x3f, 
  0xe6, 0x18, 0x82, 0xbd, 0x75, 0xf6, 0x9d, 0x3e, 0xea, 0xb5, 0x42, 0x3c, 
  0x40, 0xf1, 0x4f, 0x3e, 0x5c, 0xe2, 0xc4, 0xbe, 0x81, 0xc4, 0x03, 0x3f, 
  0x59, 0xd0, 0x8b, 0x3e, 0x2b, 0xf8, 0xbb, 0x3d, 0x3b, 0xa9, 0xb2, 0x3e, 
  0x20, 0x26, 0x0b, 0x3e, 0x6a, 0xf1, 0x1a, 0x3d, 0xd5, 0xaa, 0xa9, 0xbd, 
  0x6f, 0x58, 0xa0, 0x3d, 0xbb, 0xb7, 0x07, 0x3f, 0x1e, 0x6f, 0x6b, 0xbd, 
  0x51, 0xca, 0x01, 0x3e, 0x16, 0x06, 0x85, 0xbd, 0xc2, 0x24, 0x09, 0x3e, 
  0xa1, 0xf6, 0x64, 0xbf, 0xea, 0x5b, 0x0d, 0x3f, 0xe4, 0xcf, 0x0f, 0x3e, 
  0x70, 0x6c, 0x29, 0xbe, 0xb0, 0x3e, 0x94, 0x3e, 0x4d, 0x77, 0xd7, 0xbb, 
  0x40, 0xbd, 0x48, 0x3e, 0x60, 0xda, 0x15, 0xbf, 0xcd, 0xa9, 0x3a, 0x3f, 
  0xcf, 0x4f, 0xd5, 0x3e, 0x88, 0x8d, 0xb9, 0xbd, 0x07, 0xb9, 0xd9, 0x3e, 
  0x7c, 0xcd, 0x35, 0x3d, 0x42, 0x0e, 0x99, 0x3e, 0x53, 0x49, 0x2a, 0x3f, 
  0xe9, 0xc9, 0xf2, 0xbd, 0xe0, 0x6a, 0x99, 0x3e, 0xcc, 0x6c, 0xc9, 0x3d, 
  0x93, 0xbe, 0xf0, 0xbd, 0x8c, 0x20, 0x43, 0xbe, 0xf2, 0xa3, 0xcf, 0xbe, 
  0xfd, 0xee, 0x56, 0xbf, 0x20, 0xa8, 0xc1, 0x3c, 0xa6, 0xec, 0xec, 0x3c, 
  0xdd, 0xa3, 0xbf, 0x3d, 0xc1, 0x75, 0x61, 0x3d, 0x8b, 0x38, 0x55, 0xbc, 
  0x2f, 0x8e, 0x77, 0x3c, 0xf4, 0x7b, 0x5b, 0xbf, 0xa7, 0xe6, 0xff, 0x3e, 
  0x44, 0x8b, 0x43, 0x3e, 0x0b, 0xab, 0xaa, 0xbd, 0xe9, 0x3f, 0x2b, 0x3e, 
  0x34, 0x63, 0x32, 0xbd, 0x77, 0x90, 0x89, 0x3d, 0x46, 0x59, 0x39, 0x3f, 
  0x99, 0x59, 0xed, 0xbd, 0xad, 0xe7, 0xd0, 0x3e, 0xd2, 0x02, 0x30, 0x3e, 
  0x1c, 0x56, 0xae, 0x3b, 0x76, 0xba, 0xfc, 0xbd, 0x85, 0xd2, 0xff, 0x3b, 
  0xce, 0x14, 0xf8, 0x3e, 0x5c, 0x16, 0x5e, 0x3d, 0x7b, 0x4f, 0x03, 0x3f, 
  0x16, 0x57, 0x0a, 0x3e, 0xf0, 0xa4, 0x05, 0x3e, 0x4c, 0xf7, 0x5d, 0x3d, 
  0x33, 0x0c, 0xe1, 0xbd, 0x53, 0x05, 0x30, 0xbf, 0x78, 0xa8, 0x20, 0x3f, 
  0x4c, 0xf8, 0xc8, 0x3e, 0xd0, 0xc9, 0xb5, 0xbc, 0x56, 0xed, 0x85, 0x3b, 
  0x7d, 0x90, 0x14, 0xbd, 0x8c, 0x36, 0x8a, 0x3e, 0x20, 0x16, 0x5e, 0x3f, 
  0x59, 0x43, 0x1d, 0x3e, 0x80, 0xd9, 0x73, 0x3e, 0xe4, 0x54, 0xe9, 0x3c, 
  0xa3, 0x4e, 0xa1, 0x3d, 0x20, 0xc4, 0x50, 0x3d, 0x0d, 0x44, 0xa3, 0xbd, 
  0x38, 0xe5, 0x50, 0x3f, 0x3f, 0xda, 0xbe, 0x3e, 0x05, 0x32, 0x7e, 0x3e, 
  0x12, 0x45, 0xc1, 0x3c, 0x8d, 0x31, 0x77, 0x3e, 0xfd, 0x81, 0x02, 0xbe, 
  0x84, 0x34, 0x92, 0x3e, 0xc2, 0x51, 0x1e, 0x3f, 0x81, 0x4e, 0x27, 0x3d, 
  0xa3, 0x6c, 0xf9, 0x3e, 0x1f, 0xa8, 0xb2, 0xbe, 0x92, 0x4c, 0xb4, 0x3d, 
  0x81, 0xcc, 0xbc, 0x3b, 0xc0, 0xbb, 0x26, 0xbd, 0x37, 0x2b, 0x38, 0x3f, 
  0x6d, 0x2d, 0xf8, 0x3e, 0xfb, 0xf9, 0x72, 0x3e, 0xf2, 0x8c, 0xb6, 0xbc, 
  0x44, 0xc6, 0x56, 0x3e, 0x0a, 0x8a, 0x15, 0xbd, 0x6e, 0x26, 0x82, 0x3d, 
  0x39, 0x0b, 0x5c, 0xbf, 0x07, 0x84, 0x9f, 0x3e, 0x71, 0x49, 0xc6, 0x3e, 
  0xff, 0x88, 0x3e, 0x3e, 0x95, 0x79, 0xee, 0xbd, 0x4d, 0xec, 0x56, 0xbe, 
  0xcf, 0x63, 0x37, 0xbe, 0x67, 0x2f, 0x3c, 0xbf, 0xc2, 0x18, 0x48, 0xbe, 
  0xbb, 0xad, 0x2a, 0x3e, 0xed, 0xf9, 0x85, 0xbe, 0x65, 0x37, 0xd1, 0x3d, 
  0xfb, 0x6d, 0xa1, 0x3d, 0x72, 0xd9, 0xd6, 0xbd, 0x5f, 0x3c, 0x3c, 0xbf, 
  0x07, 0x1c, 0xae, 0x3e, 0xdc, 0x55, 0x94, 0x3e, 0x03, 0x96, 0xc5, 0xbb, 
  0xc4, 0xa2, 0xaf, 0x3d, 0x07, 0x91, 0xa4, 0xbd, 0xe4, 0x19, 0xa8, 0x3c, 
  0xfe, 0x6f, 0x53, 0x3f, 0x40, 0xa4, 0x25, 0x3f, 0x9f, 0xdd, 0xc8, 0x3e, 
  0x77, 0xf0, 0x62, 0xbc, 0x56, 0x62, 0xa9, 0x3d, 0x7a, 0x70, 0x03, 0x3d, 
  0xc3, 0xd1, 0x8c, 0xbc, 0x69, 0x00, 0x7f, 0xbf, 0xd3, 0x3a, 0xc7, 0x3e, 
  0xb3, 0x55, 0x62, 0x3e, 0x20, 0xc5, 0xf8, 0x3c, 0xf7, 0x5c, 0x45, 0x3e, 
  0x65, 0x61, 0x49, 0x3d, 0xe8, 0xbe, 0xa4, 0x3d, 0x05, 0x6a, 0x50, 0xbf, 
  0xef, 0x74, 0xf0, 0x3e, 0xc6, 0x78, 0xa0, 0x3e, 0x90, 0x84, 0x1f, 0x3d, 
  0x38, 0x6f, 0x95, 0x3d, 0xda, 0x8e, 0x0f, 0x3e, 0x1f, 0x64, 0xf7, 0xbd, 
  0x01, 0x73, 0x54, 0xbf, 0x3d, 0xe6, 0x93, 0x3e, 0x5f, 0x45, 0xff, 0x3d, 
  0x4a, 0xf8, 0x04, 0x3d, 0x4e, 0x8f, 0x85, 0x3d, 0xe6, 0x55, 0x8a, 0xbc, 
  0x45, 0x0b, 0xac, 0xbd, 0xd9, 0xb8, 0x84, 0x3f, 0xc2, 0x51, 0x0d, 0x3e, 
  0xaa, 0x28, 0xa6, 0x3e, 0xb3, 0xa2, 0xac, 0x3d, 0x00, 0xe5, 0xfe, 0x3d, 
  0x5c, 0xa3, 0x17, 0xbd, 0x95, 0x59, 0xa2, 0x3c, 0xf3, 0x57, 0x63, 0x3e, 
  0x53, 0x50, 0x96, 0x3c, 0x25, 0x01, 0xfc, 0x3e, 0x59, 0xe7, 0xf5, 0xbd, 
  0x4b, 0x2a, 0x23, 0x3e, 0xf8, 0xcb, 0x8e, 0xbe, 0xaa, 0x63, 0x1e, 0x3e, 
  0xfd, 0xe8, 0x93, 0xbe, 0xd3, 0x6c, 0x07, 0x3f, 0xd0, 0x5b, 0x0e, 0x3f, 
  0x48, 0xc2, 0x04, 0x3e, 0xc0, 0xa5, 0x82, 0x3e, 0x4e, 0x22, 0x04, 0x3e, 
  0x62, 0x69, 0xba, 0xbd, 0x7f, 0xf2, 0x91, 0x3e, 0x2e, 0xaa, 0x46, 0xbe, 
  0x52, 0xb6, 0xba, 0x3e, 0x1b, 0xd5, 0x98, 0x3d, 0x3a, 0xee, 0xbe, 0xbe, 
  0x21, 0x7e, 0x42, 0xbe, 0x59, 0x17, 0x1a, 0xbe, 0x94, 0x91, 0x7b, 0xbf, 
  0x37, 0x57, 0x57, 0xbd, 0xc6, 0x2e, 0x59, 0xbd, 0x5a, 0x12, 0x50, 0x3e, 
  0xcc, 0xbe, 0xb6, 0x3d, 0x88, 0x5f, 0x41, 0xbe, 0xc5, 0x16, 0x9d, 0xbd, 
  0xa2, 0x30, 0x05, 0xbf, 0x1d, 0x35, 0x7f, 0x3b, 0xa0, 0xc0, 0xea, 0xbd, 
  0x64, 0x03, 0xae, 0xbc, 0x80, 0xe0, 0x9c, 0x3d, 0xed, 0x5e, 0x06, 0x3d, 
  0xa4, 0xdd, 0xfc, 0xbc, 0xb5, 0xf8, 0x74, 0x3f, 0x7d, 0x92, 0x9b, 0x3e, 
  0x75, 0xd6, 0x5a, 0x3e, 0xc0, 0xeb, 0x67, 0x3d, 0xd0, 0x74, 0x28, 0x3e, 
  0xc9, 0xb2, 0x89, 0x3d, 0xb5, 0x4b, 0x9f, 0x3d, 0x4c, 0x62, 0x15, 0xbd, 
  0xee, 0xd5, 0x0a, 0x3f, 0xc6, 0x77, 0xd3, 0x3e, 0x10, 0xcc, 0xcb, 0xbc, 
  0x7c, 0xa2, 0x2a, 0x3d, 0xcb, 0xdd, 0xf5, 0x3c, 0xc4, 0xd1, 0x56, 0xbd, 
  0x31, 0xe6, 0x07, 0xbc, 0xce, 0x0c, 0x0b, 0x3f, 0xd8, 0x44, 0x0f, 0x3e, 
  0x48, 0x41, 0x09, 0xbc, 0xd2, 0x63, 0xe2, 0x3d, 0x4d, 0xa4, 0x1a, 0x3d, 
  0x41, 0x30, 0x10, 0x3d, 0x68, 0x7e, 0x7c, 0xbf, 0xc2, 0x29, 0xad, 0x3e, 
  0xd8, 0x1f, 0x1d, 0x3e, 0xe4, 0x98, 0x71, 0x3c, 0xf2, 0xfd, 0xf7, 0xbd, 
  0x42, 0x19, 0x65, 0x3d, 0x2a, 0xb2, 0xa0, 0xbe, 0x2d, 0x45, 0x96, 0xbe, 
  0xf0, 0x1f, 0x66, 0x3e, 0x4f, 0x4f, 0x37, 0x3e, 0x72, 0xe9, 0x71, 0x3e, 
  0x55, 0x26, 0xb0, 0x3e, 0x88, 0x18, 0xbc, 0x3d, 0x43, 0x8f, 0x53, 0x3e, 
  0xce, 0x09, 0xbc, 0x3e, 0x9f, 0xdc, 0x74, 0x3d, 0x83, 0x9f, 0x8e, 0x3d, 
  0x5b, 0x8a, 0xb4, 0x3d, 0x06, 0xb6, 0x73, 0x3e, 0x3c, 0x2c, 0x27, 0xbd, 
  0xb2, 0x65, 0x81, 0x3e, 0x82, 0xce, 0xad, 0xbd, 0x20, 0x50, 0xf7, 0x3e, 
  0xd4, 0x5d, 0xd1, 0x3d, 0x54, 0x3f, 0x2e, 0x3e, 0x23, 0x04, 0x3c, 0x3e, 
  0x67, 0x26, 0x7e, 0x3d, 0xae, 0x68, 0x56, 0x3d, 0xb2, 0xfc, 0xdb, 0x3e, 
  0x19, 0xdc, 0x96, 0x3e, 0xa0, 0x41, 0x6d, 0x3e, 0x92, 0x8c, 0x02, 0x3e, 
  0x73, 0xaf, 0x8b, 0x3e, 0x8b, 0x20, 0xab, 0x3d, 0x06, 0x5f, 0x69, 0xbd, 
  0x62, 0x32, 0x08, 0xbf, 0xa0, 0xd4, 0xfc, 0x3d, 0x29, 0x73, 0xf4, 0x3e, 
  0xfc, 0x9c, 0x5e, 0x3e, 0x0d, 0x9b, 0x91, 0xbc, 0x29, 0xe8, 0xa1, 0xbd, 
  0x93, 0xda, 0x01, 0x3d, 0xb5, 0xa4, 0x22, 0x3d, 0x6f, 0xad, 0x1a, 0x3f, 
  0xce, 0xf2, 0x05, 0x3b, 0x5b, 0x62, 0x27, 0xbe, 0xed, 0x7f, 0xc7, 0x3e, 
  0x13, 0xbc, 0xb5, 0xbc, 0xa8, 0x39, 0x83, 0x3e, 0xf8, 0xe0, 0x17, 0x3f, 
  0x6a, 0x84, 0x7f, 0x3d, 0x82, 0x63, 0x7e, 0x3e, 0xef, 0x8c, 0xd8, 0xbd, 
  0x2d, 0xf5, 0x6b, 0x3e, 0xc1, 0xd3, 0xa5, 0xbd, 0x49, 0x18, 0x8d, 0x3e, 
  0xf7, 0x01, 0x46, 0x3f, 0x06, 0x02, 0x8d, 0x3d, 0xf1, 0x00, 0x34, 0x3e, 
  0x76, 0xa1, 0x35, 0xbe, 0x3b, 0x40, 0x39, 0x3d, 0xd4, 0x75, 0xe4, 0xbd, 
  0x28, 0x15, 0xba, 0x3d, 0x5c, 0x24, 0x6d, 0x3f, 0x58, 0x51, 0x11, 0x3f, 
  0x03, 0xaf, 0x3c, 0x3e, 0xef, 0x43, 0x0f, 0xbe, 0x8f, 0x02, 0xd8, 0x3b, 
  0xdb, 0x78, 0xcb, 0x3b, 0x46, 0x23, 0xe0, 0xbd, 0x63, 0xbd, 0x19, 0x3f, 
  0x19, 0x6a, 0xdb, 0x3e, 0x11, 0xc0, 0xf9, 0x3d, 0x1d, 0xc0, 0x8e, 0xbc, 
  0x74, 0x8b, 0x9d, 0xbe, 0x93, 0x99, 0xad, 0xbb, 0x8e, 0x59, 0xb0, 0xbe, 
  0x9a, 0x4b, 0x83, 0xbf, 0xeb, 0xd4, 0xaf, 0x3e, 0xe9, 0xca, 0x81, 0xbe, 
  0xec, 0xa4, 0x10, 0xbe, 0x60, 0x70, 0x8c, 0x3d, 0x4a, 0x8e, 0x64, 0x3d, 
  0x76, 0x45, 0x0c, 0x3e, 0xa4, 0x88, 0x86, 0x3e, 0x7f, 0x2f, 0x07, 0x3f, 
  0x3d, 0x5f, 0x15, 0x3d, 0x5b, 0xba, 0x32, 0x3c, 0xe0, 0xa8, 0x01, 0x3e, 
  0x40, 0xe3, 0xbd, 0xbd, 0xbc, 0xe7, 0x46, 0x3e, 0x06, 0x65, 0xc6, 0x3e, 
  0xac, 0x2a, 0x0e, 0x3f, 0x4e, 0x87, 0x72, 0x3e, 0x1e, 0x9d, 0xc2, 0x3c, 
  0xf2, 0x71, 0x70, 0x3e, 0x80, 0x2a, 0x8d, 0x3d, 0xea, 0x47, 0x1a, 0xbe, 
  0x9c, 0xc9, 0x8a, 0x3e, 0x71, 0xf8, 0x06, 0x3f, 0x65, 0x46, 0x0f, 0x3f, 
  0x3b, 0x9c, 0xe6, 0xba, 0x2a, 0xa3, 0x9a, 0x3e, 0xa6, 0xc9, 0x88, 0xbd, 
  0x7a, 0xe2, 0xa7, 0x3e, 0xef, 0x69, 0x70, 0x3e, 0xb1, 0x75, 0xea, 0x3e, 
  0xe8, 0xcd, 0x59, 0x3e, 0xd6, 0x53, 0x79, 0xba, 0x52, 0x50, 0x96, 0x3d, 
  0x96, 0x3a, 0x22, 0x3d, 0xb1, 0x2c, 0x74, 0xbe, 0xad, 0x36, 0x46, 0x3f, 
  0x94, 0x69, 0xad, 0x3d, 0x6e, 0xf2, 0x00, 0x3f, 0x1c, 0xbf, 0x08, 0xbb, 
  0x39, 0xaa, 0x05, 0x3e, 0x59, 0xd9, 0x20, 0x3e, 0x5d, 0x74, 0x12, 0x3e, 
  0x30, 0x8a, 0x11, 0x3f, 0xd4, 0x17, 0x10, 0x3f, 0xe1, 0xb4, 0xaf, 0xbd, 
  0x94, 0x53, 0x0e, 0x3e, 0x26, 0x82, 0x1a, 0xbe, 0x7f, 0xd8, 0xe4, 0x3d, 
  0xae, 0x68, 0x81, 0xbe, 0xf5, 0x2b, 0x11, 0xbf, 0xa5, 0xf4, 0x5b, 0x3e, 
  0x68, 0x85, 0x64, 0xbe, 0xbc, 0xbb, 0x20, 0x3e, 0xab, 0xb5, 0x12, 0x3e, 
  0xab, 0x42, 0xb8, 0x3d, 0x60, 0xf3, 0x70, 0xbd, 0x08, 0xe8, 0x0b, 0x3f, 
  0xca, 0x0d, 0x31, 0x3f, 0x5a, 0x0d, 0xae, 0x3e, 0xd9, 0xb6, 0x7f, 0xbd, 
  0xee, 0x9c, 0x33, 0x3e, 0x1c, 0x15, 0x23, 0x3c, 0x25, 0xeb, 0x00, 0xbe, 
  0x7a, 0x54, 0xe9, 0xbc, 0xfc, 0x68, 0x91, 0x3e, 0x5c, 0xe6, 0x05, 0x3e, 
  0x4d, 0x7e, 0x4e, 0x3d, 0xe8, 0x50, 0x80, 0x3e, 0xda, 0x43, 0xf2, 0xbd, 
  0x40, 0x20, 0xdc, 0x3e, 0x21, 0x61, 0x79, 0x3f, 0xcb, 0x66, 0x76, 0xbe, 
  0x96, 0x68, 0xcc, 0x3e, 0xbb, 0x64, 0xe3, 0xbd, 0x8d, 0x74, 0xeb, 0x3e, 
  0xdf, 0xff, 0xb3, 0x3c, 0x4e, 0x00, 0xa9, 0x3e, 0xb5, 0x5e, 0x0c, 0x3f, 
  0x93, 0xcc, 0x3b, 0xbe, 0x0e, 0x43, 0x0f, 0x3f, 0x18, 0xae, 0x35, 0x3e, 
  0x7f, 0xe8, 0xb0, 0xbe, 0xc3, 0x64, 0x8c, 0x3d, 0xc1, 0x7e, 0xdc, 0xbe, 
  0x2d, 0xb1, 0x61, 0xbf, 0x7c, 0xe1, 0x15, 0xbd, 0xe8, 0xfb, 0xed, 0x3d, 
  0x18, 0x9d, 0x49, 0xbe, 0x6b, 0xd3, 0x66, 0x3e, 0xd6, 0xb3, 0xc2, 0xbd, 
  0x39, 0x65, 0x17, 0x3e, 0xb4, 0x56, 0xe9, 0x3e, 0x06, 0x2a, 0xb0, 0x3e, 
  0x74, 0x58, 0xf4, 0x3e, 0xa4, 0xc5, 0xb9, 0x3d, 0x15, 0x99, 0xd0, 0xbd, 
  0xc0, 0x7e, 0x83, 0x3e, 0xaa, 0xfd, 0xc0, 0xbe, 0x00, 0x21, 0x03, 0xbf, 
  0x2a, 0x47, 0x8e, 0xbe, 0x52, 0x7c, 0xb8, 0xbc, 0xfb, 0x9e, 0xa5, 0x3d, 
  0xa0, 0xf9, 0xff, 0xff, 0xa4, 0xf9, 0xff, 0xff, 0x0f, 0x00, 0x00, 0x00, 
  0x4d, 0x4c, 0x49, 0x52, 0x20, 0x43, 0x6f, 0x6e, 0x76, 0x65, 0x72, 0x74, 
  0x65, 0x64, 0x2e, 0x00, 0x01, 0x00, 0x00, 0x00, 0x14, 0x00, 0x00, 0x00, 
  0x00, 0x00, 0x0e, 0x00, 0x18, 0x00, 0x14, 0x00, 0x10, 0x00, 0x0c, 0x00, 
  0x08, 0x00, 0x04, 0x00, 0x0e, 0x00, 0x00, 0x00, 0x14, 0x00, 0x00, 0x00, 
  0x1c, 0x00, 0x00, 0x00, 0xe4, 0x00, 0x00, 0x00, 0xe8, 0x00, 0x00, 0x00, 
  0xec, 0x00, 0x00, 0x00, 0x04, 0x00, 0x00, 0x00, 0x6d, 0x61, 0x69, 0x6e, 
  0x00, 0x00, 0x00, 0x00, 0x03, 0x00, 0x00, 0x00, 0x8c, 0x00, 0x00, 0x00, 
  0x38, 0x00, 0x00, 0x00, 0x04, 0x00, 0x00, 0x00, 0x8e, 0xff, 0xff, 0xff, 
  0x10, 0x00, 0x00, 0x00, 0x00, 0x00, 0x00, 0x08, 0x0c, 0x00, 0x00, 0x00, 
  0x10, 0x00, 0x00, 0x00, 0x1c, 0xfa, 0xff, 0xff, 0x01, 0x00, 0x00, 0x00, 
  0x09, 0x00, 0x00, 0x00, 0x03, 0x00, 0x00, 0x00, 0x08, 0x00, 0x00, 0x00, 
  0x05, 0x00, 0x00, 0x00, 0x04, 0x00, 0x00, 0x00, 0xbe, 0xff, 0xff, 0xff, 
  0x1c, 0x00, 0x00, 0x00, 0x00, 0x00, 0x00, 0x08, 0x1c, 0x00, 0x00, 0x00, 
  0x20, 0x00, 0x00, 0x00, 0x0c, 0x00, 0x08, 0x00, 0x07, 0x00, 0x00, 0x00, 
  0x00, 0x00, 0x06, 0x00, 0x0c, 0x00, 0x00, 0x00, 0x00, 0x00, 0x01, 0x01, 
  0x01, 0x00, 0x00, 0x00, 0x08, 0x00, 0x00, 0x00, 0x03, 0x00, 0x00, 0x00, 
  0x07, 0x00, 0x00, 0x00, 0x06, 0x00, 0x00, 0x00, 0x03, 0x00, 0x00, 0x00, 
  0x00, 0x00, 0x0e, 0x00, 0x16, 0x00, 0x00, 0x00, 0x10, 0x00, 0x0c, 0x00, 
  0x0b, 0x00, 0x04, 0x00, 0x0e, 0x00, 0x00, 0x00, 0x18, 0x00, 0x00, 0x00, 
  0x00, 0x00, 0x00, 0x08, 0x18, 0x00, 0x00, 0x00, 0x1c, 0x00, 0x00, 0x00, 
  0x00, 0x00, 0x06, 0x00, 0x08, 0x00, 0x07, 0x00, 0x06, 0x00, 0x00, 0x00, 
  0x00, 0x00, 0x00, 0x01, 0x01, 0x00, 0x00, 0x00, 0x07, 0x00, 0x00, 0x00, 
  0x03, 0x00, 0x00, 0x00, 0x00, 0x00, 0x00, 0x00, 0x01, 0x00, 0x00, 0x00, 
  0x02, 0x00, 0x00, 0x00, 0x01, 0x00, 0x00, 0x00, 0x09, 0x00, 0x00, 0x00, 
  0x01, 0x00, 0x00, 0x00, 0x00, 0x00, 0x00, 0x00, 0x0a, 0x00, 0x00, 0x00, 
  0x00, 0x05, 0x00, 0x00, 0xa8, 0x04, 0x00, 0x00, 0x54, 0x04, 0x00, 0x00, 
  0x18, 0x04, 0x00, 0x00, 0xdc, 0x03, 0x00, 0x00, 0x9c, 0x03, 0x00, 0x00, 
  0xb8, 0x01, 0x00, 0x00, 0x00, 0x01, 0x00, 0x00, 0x60, 0x00, 0x00, 0x00, 
  0x04, 0x00, 0x00, 0x00, 0x3e, 0xfb, 0xff, 0xff, 0x00, 0x00, 0x00, 0x01, 
  0x14, 0x00, 0x00, 0x00, 0x1c, 0x00, 0x00, 0x00, 0x1c, 0x00, 0x00, 0x00, 
  0x0a, 0x00, 0x00, 0x00, 0x34, 0x00, 0x00, 0x00, 0x02, 0x00, 0x00, 0x00, 
  0xff, 0xff, 0xff, 0xff, 0x01, 0x00, 0x00, 0x00, 0x28, 0xfb, 0xff, 0xff, 
  0x1b, 0x00, 0x00, 0x00, 0x53, 0x74, 0x61, 0x74, 0x65, 0x66, 0x75, 0x6c, 
  0x50, 0x61, 0x72, 0x74, 0x69, 0x74, 0x69, 0x6f, 0x6e, 0x65, 0x64, 0x43, 
  0x61, 0x6c, 0x6c, 0x5f, 0x31, 0x3a, 0x30, 0x00, 0x02, 0x00, 0x00, 0x00, 
  0x01, 0x00, 0x00, 0x00, 0x01, 0x00, 0x00, 0x00, 0x96, 0xfb, 0xff, 0xff, 
  0x00, 0x00, 0x00, 0x01, 0x14, 0x00, 0x00, 0x00, 0x1c, 0x00, 0x00, 0x00, 
  0x1c, 0x00, 0x00, 0x00, 0x09, 0x00, 0x00, 0x00, 0x78, 0x00, 0x00, 0x00, 
  0x02, 0x00, 0x00, 0x00, 0xff, 0xff, 0xff, 0xff, 0x20, 0x00, 0x00, 0x00, 
  0x80, 0xfb, 0xff, 0xff, 0x5e, 0x00, 0x00, 0x00, 0x73, 0x65, 0x71, 0x75, 
  0x65, 0x6e, 0x74, 0x69, 0x61, 0x6c, 0x5f, 0x31, 0x5f, 0x31, 0x2f, 0x64, 
  0x65, 0x6e, 0x73, 0x65, 0x5f, 0x34, 0x5f, 0x31, 0x2f, 0x4d, 0x61, 0x74, 
  0x4d, 0x75, 0x6c, 0x3b, 0x73, 0x65, 0x71, 0x75, 0x65, 0x6e, 0x74, 0x69, 
  0x61, 0x6c, 0x5f, 0x31, 0x5f, 0x31, 0x2f, 0x64, 0x65, 0x6e, 0x73, 0x65, 
  0x5f, 0x34, 0x5f, 0x31, 0x2f, 0x52, 0x65, 0x6c, 0x75, 0x3b, 0x73, 0x65, 
  0x71, 0x75, 0x65, 0x6e, 0x74, 0x69, 0x61, 0x6c, 0x5f, 0x31, 0x5f, 0x31, 
  0x2f, 0x64, 0x65, 0x6e, 0x73, 0x65, 0x5f, 0x34, 0x5f, 0x31, 0x2f, 0x42, 
  0x69, 0x61, 0x73, 0x41, 0x64, 0x64, 0x00, 0x00, 0x02, 0x00, 0x00, 0x00, 
  0x01, 0x00, 0x00, 0x00, 0x20, 0x00, 0x00, 0x00, 0x32, 0xfc, 0xff, 0xff, 
  0x00, 0x00, 0x00, 0x01, 0x14, 0x00, 0x00, 0x00, 0x1c, 0x00, 0x00, 0x00, 
  0x1c, 0x00, 0x00, 0x00, 0x08, 0x00, 0x00, 0x00, 0x78, 0x00, 0x00, 0x00, 
  0x02, 0x00, 0x00, 0x00, 0xff, 0xff, 0xff, 0xff, 0x40, 0x00, 0x00, 0x00, 
  0x1c, 0xfc, 0xff, 0xff, 0x5e, 0x00, 0x00, 0x00, 0x73, 0x65, 0x71, 0x75, 
  0x65, 0x6e, 0x74, 0x69, 0x61, 0x6c, 0x5f, 0x31, 0x5f, 0x31, 0x2f, 0x64, 
  0x65, 0x6e, 0x73, 0x65, 0x5f, 0x33, 0x5f, 0x31, 0x2f, 0x4d, 0x61, 0x74, 
  0x4d, 0x75, 0x6c, 0x3b, 0x73, 0x65, 0x71, 0x75, 0x65, 0x6e, 0x74, 0x69, 
  0x61, 0x6c, 0x5f, 0x31, 0x5f, 0x31, 0x2f, 0x64, 0x65, 0x6e, 0x73, 0x65, 
  0x5f, 0x33, 0x5f, 0x31, 0x2f, 0x52, 0x65, 0x6c, 0x75, 0x3b, 0x73, 0x65, 
  0x71, 0x75, 0x65, 0x6e, 0x74, 0x69, 0x61, 0x6c, 0x5f, 0x31, 0x5f, 0x31, 
  0x2f, 0x64, 0x65, 0x6e, 0x73, 0x65, 0x5f, 0x33, 0x5f, 0x31, 0x2f, 0x42, 
  0x69, 0x61, 0x73, 0x41, 0x64, 0x64, 0x00, 0x00, 0x02, 0x00, 0x00, 0x00, 
  0x01, 0x00, 0x00, 0x00, 0x40, 0x00, 0x00, 0x00, 0x00, 0x00, 0x16, 0x00, 
  0x1c, 0x00, 0x18, 0x00, 0x17, 0x00, 0x10, 0x00, 0x0c, 0x00, 0x08, 0x00, 
  0x00, 0x00, 0x00, 0x00, 0x00, 0x00, 0x07, 0x00, 0x16, 0x00, 0x00, 0x00, 
  0x00, 0x00, 0x00, 0x01, 0x20, 0x00, 0x00, 0x00, 0xb0, 0x01, 0x00, 0x00, 
  0x07, 0x00, 0x00, 0x00, 0x00, 0x00, 0x00, 0x09, 0xbc, 0x01, 0x00, 0x00, 
  0x0c, 0x00, 0x0c, 0x00, 0x00, 0x00, 0x00, 0x00, 0x08, 0x00, 0x04, 0x00, 
  0x0c, 0x00, 0x00, 0x00, 0x08, 0x00, 0x00, 0x00, 0x08, 0x01, 0x00, 0x00, 
  0x20, 0x00, 0x00, 0x00, 0x00, 0x00, 0x00, 0x00, 0x00, 0x00, 0x00, 0x00, 
  0x00, 0x00, 0x00, 0x00, 0x00, 0x00, 0x00, 0x00, 0x00, 0x00, 0x00, 0x00, 
  0x00, 0x00, 0x00, 0x00, 0x00, 0x00, 0x00, 0x00, 0x00, 0x00, 0x00, 0x00, 
  0x00, 0x00, 0x00, 0x00, 0x00, 0x00, 0x00, 0x00, 0x00, 0x00, 0x00, 0x00, 
  0x00, 0x00, 0x00, 0x00, 0x00, 0x00, 0x00, 0x00, 0x00, 0x00, 0x00, 0x00, 
  0x00, 0x00, 0x00, 0x00, 0x00, 0x00, 0x00, 0x00, 0x00, 0x00, 0x00, 0x00, 
  0x00, 0x00, 0x00, 0x00, 0x00, 0x00, 0x00, 0x00, 0x00, 0x00, 0x00, 0x00, 
  0x00, 0x00, 0x00, 0x00, 0x00, 0x00, 0x00, 0x00, 0x00, 0x00, 0x00, 0x00, 
  0x00, 0x00, 0x00, 0x00, 0x00, 0x00, 0x00, 0x00, 0x00, 0x00, 0x00, 0x00, 
  0x00, 0x00, 0x00, 0x00, 0x00, 0x00, 0x00, 0x00, 0x00, 0x00, 0x00, 0x00, 
  0x00, 0x00, 0x00, 0x00, 0x00, 0x00, 0x00, 0x00, 0x00, 0x00, 0x00, 0x00, 
  0x00, 0x00, 0x00, 0x00, 0x00, 0x00, 0x00, 0x00, 0x00, 0x00, 0x00, 0x00, 
  0x00, 0x00, 0x00, 0x00, 0x00, 0x00, 0x00, 0x00, 0x00, 0x00, 0x00, 0x00, 
  0x00, 0x00, 0x00, 0x00, 0x00, 0x00, 0x00, 0x00, 0x00, 0x00, 0x00, 0x00, 
  0x00, 0x00, 0x00, 0x00, 0x00, 0x00, 0x00, 0x00, 0x00, 0x00, 0x00, 0x00, 
  0x00, 0x00, 0x00, 0x00, 0x00, 0x00, 0x00, 0x00, 0x00, 0x00, 0x00, 0x00, 
  0x00, 0x00, 0x00, 0x00, 0x00, 0x00, 0x00, 0x00, 0x00, 0x00, 0x00, 0x00, 
  0x00, 0x00, 0x00, 0x00, 0x00, 0x00, 0x00, 0x00, 0x00, 0x00, 0x00, 0x00, 
  0x00, 0x00, 0x00, 0x00, 0x00, 0x00, 0x00, 0x00, 0x00, 0x00, 0x00, 0x00, 
  0x00, 0x00, 0x00, 0x00, 0x00, 0x00, 0x00, 0x00, 0x00, 0x00, 0x00, 0x00, 
  0x00, 0x00, 0x00, 0x00, 0x00, 0x00, 0x00, 0x00, 0x00, 0x00, 0x00, 0x00, 
  0x00, 0x00, 0x00, 0x00, 0x00, 0x00, 0x00, 0x00, 0x20, 0x00, 0x00, 0x00, 
  0x5d, 0x74, 0x98, 0x3b, 0x7a, 0x2e, 0x95, 0x3b, 0xc8, 0xfe, 0x9f, 0x3b, 
  0xf7, 0x1b, 0x2e, 0x3c, 0x4b, 0x89, 0xc1, 0x3b, 0x80, 0x37, 0x96, 0x3b, 
  0xf5, 0x9e, 0xb3, 0x3b, 0x90, 0x93, 0x1b, 0x3c, 0xf9, 0x37, 0xad, 0x3b, 
  0xc5, 0x3b, 0x19, 0x3b, 0x4e, 0x1e, 0xb8, 0x3b, 0x95, 0x6b, 0x2c, 0x3c, 
  0x03, 0xea, 0x9e, 0x3b, 0xab, 0x6f, 0xb1, 0x3b, 0x0c, 0x58, 0x02, 0x3c, 
  0x8f, 0xd3, 0x3a, 0x3c, 0x83, 0xf5, 0xb6, 0x3b, 0xf3, 0x62, 0x9d, 0x3b, 
  0xfd, 0x1e, 0xc1, 0x3b, 0xf6, 0xa4, 0xb7, 0x3b, 0x13, 0x39, 0xab, 0x3b, 
  0x31, 0x44, 0x97, 0x3b, 0xcd, 0xb6, 0x8e, 0x3b, 0x20, 0x21, 0x15, 0x3b, 
  0x2f, 0x44, 0x07, 0x3c, 0x2f, 0xc6, 0xca, 0x3b, 0x7f, 0x1b, 0xcc, 0x3b, 
  0xb7, 0xa0, 0x9f, 0x3b, 0x34, 0xb7, 0x00, 0x3c, 0x9f, 0x21, 0xb2, 0x3b, 
  0xa8, 0xff, 0x13, 0x3c, 0xa9, 0x5d, 0xb2, 0x3b, 0x11, 0x00, 0x00, 0x00, 
  0x74, 0x66, 0x6c, 0x2e, 0x70, 0x73, 0x65, 0x75, 0x64, 0x6f, 0x5f, 0x71, 
  0x63, 0x6f, 0x6e, 0x73, 0x74, 0x00, 0x00, 0x00, 0x02, 0x00, 0x00, 0x00, 
  0x20, 0x00, 0x00, 0x00, 0x40, 0x00, 0x00, 0x00, 0x1a, 0xff, 0xff, 0xff, 
  0x00, 0x00, 0x00, 0x01, 0x10, 0x00, 0x00, 0x00, 0x10, 0x00, 0x00, 0x00, 
  0x06, 0x00, 0x00, 0x00, 0x1c, 0x00, 0x00, 0x00, 0xa0, 0xfe, 0xff, 0xff, 
  0x0f, 0x00, 0x00, 0x00, 0x61, 0x72, 0x69, 0x74, 0x68, 0x2e, 0x63, 0x6f, 
  0x6e, 0x73, 0x74, 0x61, 0x6e, 0x74, 0x34, 0x00, 0x02, 0x00, 0x00, 0x00, 
  0x01, 0x00, 0x00, 0x00, 0x20, 0x00, 0x00, 0x00, 0x56, 0xff, 0xff, 0xff, 
  0x00, 0x00, 0x00, 0x01, 0x10, 0x00, 0x00, 0x00, 0x10, 0x00, 0x00, 0x00, 
  0x05, 0x00, 0x00, 0x00, 0x1c, 0x00, 0x00, 0x00, 0xdc, 0xfe, 0xff, 0xff, 
  0x0f, 0x00, 0x00, 0x00, 0x61, 0x72, 0x69, 0x74, 0x68, 0x2e, 0x63, 0x6f, 
  0x6e, 0x73, 0x74, 0x61, 0x6e, 0x74, 0x33, 0x00, 0x01, 0x00, 0x00, 0x00, 
  0x01, 0x00, 0x00, 0x00, 0x8e, 0xff, 0xff, 0xff, 0x00, 0x00, 0x00, 0x01, 
  0x10, 0x00, 0x00, 0x00, 0x10, 0x00, 0x00, 0x00, 0x04, 0x00, 0x00, 0x00, 
  0x1c, 0x00, 0x00, 0x00, 0x14, 0xff, 0xff, 0xff, 0x0f, 0x00, 0x00, 0x00, 
  0x61, 0x72, 0x69, 0x74, 0x68, 0x2e, 0x63, 0x6f, 0x6e, 0x73, 0x74, 0x61, 
  0x6e, 0x74, 0x32, 0x00, 0x01, 0x00, 0x00, 0x00, 0x20, 0x00, 0x00, 0x00, 
  0xc6, 0xff, 0xff, 0xff, 0x00, 0x00, 0x00, 0x01, 0x10, 0x00, 0x00, 0x00, 
  0x10, 0x00, 0x00, 0x00, 0x03, 0x00, 0x00, 0x00, 0x1c, 0x00, 0x00, 0x00, 
  0x4c, 0xff, 0xff, 0xff, 0x0f, 0x00, 0x00, 0x00, 0x61, 0x72, 0x69, 0x74, 
  0x68, 0x2e, 0x63, 0x6f, 0x6e, 0x73, 0x74, 0x61, 0x6e, 0x74, 0x31, 0x00, 
  0x01, 0x00, 0x00, 0x00, 0x40, 0x00, 0x00, 0x00, 0x00, 0x00, 0x16, 0x00, 
  0x18, 0x00, 0x14, 0x00, 0x00, 0x00, 0x10, 0x00, 0x0c, 0x00, 0x08, 0x00, 
  0x00, 0x00, 0x00, 0x00, 0x00, 0x00, 0x07, 0x00, 0x16, 0x00, 0x00, 0x00, 
  0x00, 0x00, 0x00, 0x01, 0x10, 0x00, 0x00, 0x00, 0x10, 0x00, 0x00, 0x00, 
  0x02, 0x00, 0x00, 0x00, 0x1c, 0x00, 0x00, 0x00, 0x9c, 0xff, 0xff, 0xff, 
  0x0e, 0x00, 0x00, 0x00, 0x61, 0x72, 0x69, 0x74, 0x68, 0x2e, 0x63, 0x6f, 
  0x6e, 0x73, 0x74, 0x61, 0x6e, 0x74, 0x00, 0x00, 0x02, 0x00, 0x00, 0x00, 
  0x40, 0x00, 0x00, 0x00, 0x07, 0x00, 0x00, 0x00, 0x00, 0x00, 0x16, 0x00, 
  0x1c, 0x00, 0x18, 0x00, 0x00, 0x00, 0x14, 0x00, 0x10, 0x00, 0x0c, 0x00, 
  0x00, 0x00, 0x00, 0x00, 0x08, 0x00, 0x07, 0x00, 0x16, 0x00, 0x00, 0x00, 
  0x00, 0x00, 0x00, 0x01, 0x14, 0x00, 0x00, 0x00, 0x20, 0x00, 0x00, 0x00, 
  0x20, 0x00, 0x00, 0x00, 0x01, 0x00, 0x00, 0x00, 0x40, 0x00, 0x00, 0x00, 
  0x02, 0x00, 0x00, 0x00, 0xff, 0xff, 0xff, 0xff, 0x07, 0x00, 0x00, 0x00, 
  0x04, 0x00, 0x04, 0x00, 0x04, 0x00, 0x00, 0x00, 0x20, 0x00, 0x00, 0x00, 
  0x73, 0x65, 0x72, 0x76, 0x69, 0x6e, 0x67, 0x5f, 0x64, 0x65, 0x66, 0x61, 
  0x75, 0x6c, 0x74, 0x5f, 0x6b, 0x65, 0x72, 0x61, 0x73, 0x5f, 0x74, 0x65, 
  0x6e, 0x73, 0x6f, 0x72, 0x5f, 0x34, 0x3a, 0x30, 0x00, 0x00, 0x00, 0x00, 
  0x02, 0x00, 0x00, 0x00, 0x01, 0x00, 0x00, 0x00, 0x07, 0x00, 0x00, 0x00, 
  0x01, 0x00, 0x00, 0x00, 0x10, 0x00, 0x00, 0x00, 0x0c, 0x00, 0x10, 0x00, 
  0x0f, 0x00, 0x00, 0x00, 0x08, 0x00, 0x04, 0x00, 0x0c, 0x00, 0x00, 0x00, 
  0x09, 0x00, 0x00, 0x00, 0x0c, 0x00, 0x00, 0x00, 0x00, 0x00, 0x00, 0x09, 
};
unsigned int calorie_nn_tflite_len = 6648;
